#include "model_data.h"

const unsigned char g_humedad_model[] = {
    0x1c, 0x00, 0x00, 0x00, 0x54, 0x46, 0x4c, 0x33, 0x14, 0x00, 0x20, 0x00, 
    0x1c, 0x00, 0x18, 0x00, 0x14, 0x00, 0x10, 0x00, 0x0c, 0x00, 0x00, 0x00, 
    0x08, 0x00, 0x04, 0x00, 0x14, 0x00, 0x00, 0x00, 0x1c, 0x00, 0x00, 0x00, 
    0x98, 0x00, 0x00, 0x00, 0xf0, 0x00, 0x00, 0x00, 0x14, 0x14, 0x00, 0x00, 
    0x24, 0x14, 0x00, 0x00, 0x08, 0x19, 0x00, 0x00, 0x03, 0x00, 0x00, 0x00, 
    0x01, 0x00, 0x00, 0x00, 0x10, 0x00, 0x00, 0x00, 0x00, 0x00, 0x0a, 0x00, 
    0x10, 0x00, 0x0c, 0x00, 0x08, 0x00, 0x04, 0x00, 0x0a, 0x00, 0x00, 0x00, 
    0x0c, 0x00, 0x00, 0x00, 0x1c, 0x00, 0x00, 0x00, 0x3c, 0x00, 0x00, 0x00, 
    0x0f, 0x00, 0x00, 0x00, 0x73, 0x65, 0x72, 0x76, 0x69, 0x6e, 0x67, 0x5f, 
    0x64, 0x65, 0x66, 0x61, 0x75, 0x6c, 0x74, 0x00, 0x01, 0x00, 0x00, 0x00, 
    0x04, 0x00, 0x00, 0x00, 0x90, 0xff, 0xff, 0xff, 0x09, 0x00, 0x00, 0x00, 
    0x04, 0x00, 0x00, 0x00, 0x08, 0x00, 0x00, 0x00, 0x6f, 0x75, 0x74, 0x70, 
    0x75, 0x74, 0x5f, 0x30, 0x00, 0x00, 0x00, 0x00, 0x01, 0x00, 0x00, 0x00, 
    0x04, 0x00, 0x00, 0x00, 0xba, 0xec, 0xff, 0xff, 0x04, 0x00, 0x00, 0x00, 
    0x0c, 0x00, 0x00, 0x00, 0x6b, 0x65, 0x72, 0x61, 0x73, 0x5f, 0x74, 0x65, 
    0x6e, 0x73, 0x6f, 0x72, 0x00, 0x00, 0x00, 0x00, 0x02, 0x00, 0x00, 0x00, 
    0x34, 0x00, 0x00, 0x00, 0x04, 0x00, 0x00, 0x00, 0xdc, 0xff, 0xff, 0xff, 
    0x0c, 0x00, 0x00, 0x00, 0x04, 0x00, 0x00, 0x00, 0x13, 0x00, 0x00, 0x00, 
    0x43, 0x4f, 0x4e, 0x56, 0x45, 0x52, 0x53, 0x49, 0x4f, 0x4e, 0x5f, 0x4d, 
    0x45, 0x54, 0x41, 0x44, 0x41, 0x54, 0x41, 0x00, 0x08, 0x00, 0x0c, 0x00, 
    0x08, 0x00, 0x04, 0x00, 0x08, 0x00, 0x00, 0x00, 0x0b, 0x00, 0x00, 0x00, 
    0x04, 0x00, 0x00, 0x00, 0x13, 0x00, 0x00, 0x00, 0x6d, 0x69, 0x6e, 0x5f, 
    0x72, 0x75, 0x6e, 0x74, 0x69, 0x6d, 0x65, 0x5f, 0x76, 0x65, 0x72, 0x73, 
    0x69, 0x6f, 0x6e, 0x00, 0x0d, 0x00, 0x00, 0x00, 0x20, 0x13, 0x00, 0x00, 
    0x18, 0x13, 0x00, 0x00, 0xc8, 0x12, 0x00, 0x00, 0xac, 0x12, 0x00, 0x00, 
    0x5c, 0x12, 0x00, 0x00, 0x4c, 0x0a, 0x00, 0x00, 0x3c, 0x01, 0x00, 0x00, 
    0xac, 0x00, 0x00, 0x00, 0xa4, 0x00, 0x00, 0x00, 0x9c, 0x00, 0x00, 0x00, 
    0x94, 0x00, 0x00, 0x00, 0x74, 0x00, 0x00, 0x00, 0x04, 0x00, 0x00, 0x00, 
    0x6a, 0xed, 0xff, 0xff, 0x04, 0x00, 0x00, 0x00, 0x60, 0x00, 0x00, 0x00, 
    0x10, 0x00, 0x00, 0x00, 0x00, 0x00, 0x00, 0x00, 0x08, 0x00, 0x0e, 0x00, 
    0x08, 0x00, 0x04, 0x00, 0x08, 0x00, 0x00, 0x00, 0x10, 0x00, 0x00, 0x00, 
    0x24, 0x00, 0x00, 0x00, 0x00, 0x00, 0x06, 0x00, 0x08, 0x00, 0x04, 0x00, 
    0x06, 0x00, 0x00, 0x00, 0x04, 0x00, 0x00, 0x00, 0x00, 0x00, 0x00, 0x00, 
    0x0c, 0x00, 0x18, 0x00, 0x14, 0x00, 0x10, 0x00, 0x0c, 0x00, 0x04, 0x00, 
    0x0c, 0x00, 0x00, 0x00, 0x78, 0x54, 0x74, 0x4d, 0xf0, 0xc3, 0x6b, 0xe4, 
    0x02, 0x00, 0x00, 0x00, 0x02, 0x00, 0x00, 0x00, 0x04, 0x00, 0x00, 0x00, 
    0x06, 0x00, 0x00, 0x00, 0x32, 0x2e, 0x32, 0x30, 0x2e, 0x30, 0x00, 0x00, 
    0xd6, 0xed, 0xff, 0xff, 0x04, 0x00, 0x00, 0x00, 0x10, 0x00, 0x00, 0x00, 
    0x31, 0x2e, 0x35, 0x2e, 0x30, 0x00, 0x00, 0x00, 0x00, 0x00, 0x00, 0x00, 
    0x00, 0x00, 0x00, 0x00, 0xd4, 0xe8, 0xff, 0xff, 0xd8, 0xe8, 0xff, 0xff, 
    0xdc, 0xe8, 0xff, 0xff, 0xfe, 0xed, 0xff, 0xff, 0x04, 0x00, 0x00, 0x00, 
    0x80, 0x00, 0x00, 0x00, 0x92, 0x4d, 0xd3, 0x3c, 0xe2, 0xa8, 0x86, 0x3d, 
    0xc9, 0x0e, 0xe5, 0x3d, 0x6c, 0xec, 0x48, 0x3d, 0x8d, 0xd9, 0xbb, 0x3c, 
    0x60, 0xa7, 0x7b, 0x3c, 0x94, 0x3f, 0xcf, 0x3c, 0xd9, 0x63, 0xe0, 0x3c, 
    0x22, 0xf3, 0x1a, 0xbc, 0xb3, 0xe0, 0x87, 0x3c, 0xd6, 0xea, 0xe0, 0x3d, 
    0x58, 0x65, 0xec, 0x3d, 0x53, 0xc8, 0x29, 0x3d, 0x44, 0x65, 0x43, 0x3c, 
    0xe6, 0xc4, 0x99, 0xbb, 0xb8, 0xc9, 0xd8, 0xbc, 0xfe, 0x21, 0xcb, 0xbc, 
    0xb6, 0xa1, 0x4a, 0xbb, 0xf3, 0xf6, 0x29, 0x3d, 0x22, 0xf9, 0xce, 0xbc, 
    0xde, 0x26, 0x62, 0xbd, 0xa3, 0xcd, 0x1a, 0x3d, 0x99, 0x15, 0xe9, 0x3b, 
    0x32, 0xa0, 0x83, 0xbc, 0x80, 0x34, 0xb8, 0x3c, 0xb5, 0xa3, 0x64, 0x3c, 
    0x58, 0x86, 0x15, 0xbc, 0x12, 0xe8, 0xeb, 0xbc, 0x04, 0xe2, 0x60, 0xbc, 
    0xe9, 0x5c, 0x22, 0xbc, 0x1a, 0x91, 0x1f, 0xbc, 0x40, 0xef, 0xda, 0xbc, 
    0x8a, 0xee, 0xff, 0xff, 0x04, 0x00, 0x00, 0x00, 0x00, 0x09, 0x00, 0x00, 
    0x82, 0x62, 0x19, 0x3e, 0xc2, 0xbc, 0x50, 0x3e, 0x28, 0x44, 0x96, 0xbe, 
    0x77, 0xc6, 0x9c, 0xbd, 0xf6, 0x3a, 0x6f, 0x3e, 0xbb, 0xaa, 0x94, 0xbe, 
    0x5a, 0xa9, 0xf1, 0x3d, 0x29, 0x3d, 0x48, 0xbe, 0xea, 0x50, 0x8e, 0xbe, 
    0xa7, 0x71, 0x64, 0x3e, 0xe5, 0xc1, 0x97, 0xbe, 0xcc, 0xe9, 0xae, 0xbe, 
    0x5c, 0x13, 0x97, 0x3e, 0xbd, 0xe0, 0xc3, 0xbc, 0x4d, 0xcd, 0x8e, 0xbc, 
    0x12, 0x31, 0x91, 0xbd, 0x8e, 0x76, 0x75, 0x3e, 0x37, 0xc2, 0xef, 0xbd, 
    0x01, 0x4c, 0x84, 0x3e, 0xdc, 0x6c, 0x52, 0x3e, 0x6e, 0x63, 0xac, 0xbe, 
    0xc9, 0x21, 0x89, 0xbc, 0x5d, 0x8d, 0x8f, 0xbe, 0x0a, 0x3d, 0x2d, 0xbe, 
    0xb4, 0xd1, 0xa7, 0x3d, 0xcd, 0x8d, 0x5f, 0x3e, 0xef, 0x2d, 0x93, 0xbe, 
    0x1a, 0xe6, 0xa1, 0xbe, 0x71, 0xc8, 0x73, 0xbe, 0x44, 0x6c, 0x4e, 0xbe, 
    0x58, 0x81, 0x85, 0x3e, 0xe6, 0xeb, 0x2f, 0x3e, 0xf0, 0x9a, 0xed, 0x3d, 
    0x3c, 0x73, 0x44, 0x3e, 0xee, 0x14, 0x98, 0xbe, 0xab, 0x17, 0x8e, 0x3d, 
    0xc2, 0x57, 0xae, 0xbe, 0xbe, 0xcf, 0x0e, 0x3e, 0xdf, 0xc6, 0x20, 0xbe, 
    0xe9, 0xd1, 0x38, 0x3d, 0xe7, 0xe9, 0x91, 0xbe, 0x45, 0x02, 0x65, 0x3e, 
    0xce, 0x45, 0x02, 0xbe, 0x8f, 0xe0, 0x32, 0xbe, 0x1f, 0x8e, 0x8c, 0xbe, 
    0x08, 0x64, 0x2d, 0xbe, 0xd1, 0xd3, 0x8b, 0xbd, 0xe9, 0x70, 0x26, 0x3d, 
    0x56, 0x30, 0xa9, 0x3e, 0xff, 0xf2, 0x34, 0xbc, 0xbc, 0x6b, 0x10, 0x3e, 
    0xa3, 0x80, 0x9f, 0xbe, 0x43, 0xc5, 0x1c, 0x3d, 0x10, 0xf5, 0x2e, 0x3e, 
    0x99, 0x55, 0xa8, 0x3e, 0xbe, 0xb4, 0x43, 0xbe, 0xa0, 0xca, 0x7f, 0x3e, 
    0xa2, 0x90, 0x96, 0xbe, 0x1e, 0x06, 0x20, 0x3e, 0x50, 0x05, 0x7e, 0x3e, 
    0xba, 0x8d, 0x51, 0x3d, 0x31, 0xf8, 0x90, 0xbe, 0x1f, 0x83, 0x81, 0xbc, 
    0x12, 0xd6, 0x02, 0xbe, 0x43, 0xcb, 0x73, 0xbe, 0x0c, 0xd8, 0xff, 0xbc, 
    0x51, 0xea, 0x87, 0x3e, 0xc2, 0x52, 0x8f, 0xbe, 0x27, 0xec, 0x21, 0x3e, 
    0x09, 0xc8, 0xa1, 0x3d, 0x24, 0x4c, 0xb0, 0xbe, 0xbf, 0xbf, 0x82, 0x3e, 
    0x7c, 0xe6, 0x1f, 0x3e, 0x02, 0xdf, 0xaf, 0x3e, 0x12, 0xea, 0x19, 0xbe, 
    0xe1, 0xa5, 0x68, 0x3d, 0x64, 0x89, 0x4d, 0xbe, 0x3a, 0x18, 0xab, 0x3d, 
    0xcd, 0x74, 0x68, 0xbe, 0x81, 0x5e, 0x8f, 0xbe, 0x0c, 0x9f, 0x91, 0x3d, 
    0xf3, 0xbb, 0x1a, 0xbe, 0x78, 0x2e, 0x84, 0xbe, 0x20, 0x07, 0x51, 0x3c, 
    0xe7, 0x37, 0xb7, 0xbe, 0xff, 0x5a, 0xa4, 0xbe, 0x8f, 0xfb, 0xa5, 0xbe, 
    0xb8, 0x7e, 0x15, 0xbe, 0xa6, 0x2c, 0xe2, 0xbd, 0x2d, 0xfe, 0x4f, 0xbe, 
    0x0c, 0x5f, 0xaa, 0xbe, 0x6b, 0x41, 0x9d, 0x3e, 0x96, 0x34, 0x6f, 0xbc, 
    0xfa, 0xe7, 0x27, 0x3e, 0xab, 0xc1, 0xba, 0xbe, 0x43, 0xb7, 0x07, 0x3e, 
    0x43, 0x99, 0x07, 0x3d, 0xcc, 0xd7, 0x6d, 0xbe, 0xdc, 0x91, 0x75, 0x3e, 
    0xa1, 0xf6, 0x27, 0x3d, 0xa4, 0xe6, 0x85, 0xbe, 0x49, 0xea, 0x3e, 0x3e, 
    0x81, 0xbc, 0xb1, 0x3d, 0xfa, 0x6f, 0xb1, 0x3c, 0x82, 0x0c, 0x9b, 0xbe, 
    0xbe, 0xc3, 0x9f, 0x3e, 0x8a, 0x78, 0x26, 0x3e, 0x08, 0xb9, 0x51, 0x3e, 
    0xfb, 0x09, 0x9b, 0x3e, 0x30, 0x8d, 0x5d, 0x3d, 0xaa, 0x45, 0x91, 0x3e, 
    0x0c, 0x71, 0x9a, 0x3e, 0xfc, 0x32, 0x6d, 0xbe, 0x59, 0x7e, 0xe0, 0xbd, 
    0x2a, 0x77, 0xa1, 0x3d, 0x8a, 0xb2, 0x4d, 0xbe, 0x16, 0x91, 0x84, 0x3e, 
    0x14, 0xb0, 0xed, 0xbd, 0xce, 0xb5, 0x8f, 0x3e, 0x9b, 0x1d, 0x23, 0x3e, 
    0x62, 0x9d, 0xe2, 0x3d, 0x3a, 0x53, 0x55, 0xbe, 0xe1, 0xf8, 0x41, 0xbe, 
    0x18, 0x89, 0x85, 0xbd, 0x70, 0x7d, 0xe3, 0xbd, 0x71, 0xff, 0x40, 0x3e, 
    0x6e, 0x46, 0x3d, 0xbd, 0xf5, 0x65, 0x9a, 0x3e, 0xfe, 0xd8, 0x85, 0x3e, 
    0x17, 0x72, 0x3a, 0x3d, 0x76, 0xed, 0x24, 0xbd, 0x69, 0xff, 0xb6, 0xbd, 
    0xc9, 0xbc, 0xc6, 0xbd, 0x5e, 0xb3, 0x87, 0x3e, 0xfe, 0x1d, 0xa3, 0x3d, 
    0xfd, 0x90, 0x68, 0xbe, 0x07, 0x5d, 0xf0, 0x3d, 0xa7, 0x00, 0xf3, 0xbd, 
    0x62, 0xdc, 0x94, 0xbe, 0x01, 0x03, 0x2b, 0x3d, 0x7a, 0x97, 0xb1, 0xbd, 
    0xd3, 0xf7, 0x8a, 0xbd, 0xa4, 0x02, 0x86, 0xbe, 0xfe, 0x9d, 0x1d, 0xbe, 
    0x4b, 0xd5, 0x24, 0x3d, 0xc1, 0x5e, 0x92, 0x3e, 0x5c, 0xe6, 0x4c, 0x3e, 
    0x6b, 0x12, 0x96, 0x3d, 0x34, 0x9c, 0x15, 0x3e, 0x88, 0xc1, 0xb9, 0x3d, 
    0x01, 0xcb, 0xce, 0xbd, 0x21, 0x7b, 0xad, 0x3e, 0x60, 0xda, 0x5a, 0xbe, 
    0xdc, 0x63, 0x34, 0x3e, 0x29, 0x41, 0x75, 0x3e, 0x4f, 0x16, 0x3c, 0x3e, 
    0x09, 0x17, 0x7a, 0x3e, 0xb0, 0x0e, 0x3d, 0xba, 0x6e, 0x33, 0x62, 0x3e, 
    0x5f, 0x89, 0xdc, 0x3d, 0xec, 0x72, 0x57, 0x3e, 0x7a, 0xab, 0x87, 0x3c, 
    0x51, 0xc6, 0xad, 0x3c, 0x55, 0xcd, 0x80, 0x3d, 0xca, 0x60, 0x4f, 0x3d, 
    0xf7, 0xf8, 0xa0, 0x3e, 0x12, 0x19, 0x2a, 0xbe, 0x7f, 0xa7, 0xf6, 0xbd, 
    0x32, 0xeb, 0xa7, 0xbe, 0x66, 0x0f, 0x78, 0x3e, 0xab, 0x57, 0x30, 0xbe, 
    0xaf, 0x1b, 0x5e, 0xbe, 0xb1, 0x03, 0x7a, 0xbe, 0xc7, 0xb5, 0x83, 0xbe, 
    0xab, 0xd2, 0x8a, 0xbe, 0xa1, 0xc3, 0x3e, 0xbc, 0xce, 0xc6, 0x54, 0xbe, 
    0x87, 0x5a, 0xc9, 0xbe, 0x62, 0x01, 0x8a, 0x3e, 0x2a, 0x52, 0xa8, 0xbe, 
    0xc6, 0x1a, 0x9a, 0xbd, 0x18, 0xdc, 0xe5, 0x3d, 0x68, 0x84, 0x29, 0xbe, 
    0x86, 0x47, 0x45, 0x3e, 0xfe, 0x98, 0xb1, 0xbe, 0x11, 0xd7, 0x44, 0xbe, 
    0x28, 0xd5, 0x8d, 0xbe, 0xe0, 0x17, 0x3b, 0xbd, 0xf5, 0xd4, 0xbe, 0xbe, 
    0x12, 0x20, 0x5d, 0x3d, 0x84, 0x4c, 0x99, 0x3e, 0x24, 0xc5, 0xba, 0xbd, 
    0x00, 0x5f, 0x64, 0xbc, 0x45, 0x6b, 0x55, 0xbe, 0xf4, 0x98, 0xda, 0x3d, 
    0x69, 0xbf, 0x51, 0x3e, 0x07, 0x00, 0x01, 0xbe, 0x6c, 0x54, 0x29, 0x3e, 
    0xba, 0x2a, 0x9a, 0xbd, 0xfb, 0x4c, 0x56, 0xbc, 0x94, 0xa3, 0x36, 0xbd, 
    0xaa, 0x4e, 0x91, 0xbe, 0x8c, 0xf3, 0x97, 0xbd, 0xeb, 0xf9, 0x8e, 0x3d, 
    0x2c, 0xd9, 0x2e, 0x3d, 0x87, 0x59, 0x91, 0xbe, 0x8f, 0xc7, 0x5c, 0xbc, 
    0x1e, 0xb2, 0x39, 0xbd, 0x82, 0x4b, 0x9c, 0x3e, 0xa2, 0x6d, 0x29, 0xbe, 
    0x12, 0x28, 0xa1, 0x3e, 0x6e, 0xd9, 0x32, 0x3e, 0xb6, 0x1a, 0x83, 0xbe, 
    0x8a, 0xbe, 0x2d, 0x3d, 0x55, 0x90, 0x7e, 0xbd, 0x9c, 0xd2, 0x95, 0x3e, 
    0x99, 0xad, 0x3d, 0xbe, 0x36, 0x2d, 0xa1, 0xbe, 0xb3, 0x28, 0xa7, 0xbe, 
    0xcf, 0x63, 0x58, 0xbe, 0xab, 0xbb, 0x79, 0xbe, 0xc3, 0x2b, 0xc8, 0xbe, 
    0xa6, 0x89, 0x88, 0x3e, 0x19, 0x9a, 0x86, 0xbe, 0x09, 0xd8, 0x32, 0x3e, 
    0xba, 0xc1, 0x75, 0xbd, 0x72, 0xd7, 0xdf, 0xbd, 0xe0, 0x29, 0x8f, 0xbe, 
    0x20, 0xea, 0x76, 0xbc, 0x70, 0x36, 0xe9, 0xbd, 0x05, 0xfb, 0x96, 0xbe, 
    0xbe, 0xa3, 0x11, 0xbe, 0x06, 0x2f, 0x63, 0xbd, 0x3c, 0x7d, 0xae, 0x3d, 
    0x1c, 0x4f, 0x1d, 0x3e, 0xcd, 0x0f, 0xb0, 0x3e, 0xdf, 0x12, 0x73, 0xbe, 
    0x0d, 0x99, 0xa9, 0x3e, 0xfb, 0xbf, 0x31, 0xbe, 0x1e, 0x48, 0xa8, 0xbd, 
    0x42, 0xbb, 0x9e, 0x3e, 0x3d, 0x43, 0xa3, 0xbe, 0xb8, 0x40, 0x28, 0xbe, 
    0x44, 0xc2, 0x92, 0x3e, 0xae, 0xc9, 0xb2, 0xbe, 0x4f, 0xda, 0xfa, 0x3c, 
    0x94, 0xa3, 0x32, 0x3e, 0xda, 0x90, 0x85, 0xbe, 0x80, 0x81, 0xcb, 0xbe, 
    0xa2, 0x48, 0xb5, 0xbe, 0xcb, 0xc6, 0xa7, 0xbe, 0xc0, 0x39, 0x9f, 0xbe, 
    0x9b, 0xd4, 0x3b, 0xbe, 0x6a, 0xfd, 0x9b, 0x3e, 0x69, 0xda, 0x37, 0x3b, 
    0x98, 0x41, 0x94, 0xbe, 0xd6, 0x44, 0x79, 0x3e, 0x9a, 0xe0, 0x7f, 0x3e, 
    0x06, 0x41, 0x8d, 0xbd, 0x8b, 0xe9, 0xf5, 0xbc, 0xa3, 0xa2, 0x32, 0x3d, 
    0xad, 0x28, 0x45, 0xbe, 0x0a, 0x28, 0x8a, 0xbe, 0xd5, 0x65, 0x83, 0xbd, 
    0x21, 0x5e, 0x25, 0x3e, 0xab, 0x93, 0xc1, 0xbe, 0x95, 0x73, 0x1a, 0xbe, 
    0xf8, 0xe6, 0x75, 0x3d, 0x6b, 0xa9, 0x19, 0xbe, 0x27, 0x7a, 0xab, 0xbe, 
    0xe4, 0x53, 0xc0, 0x3d, 0xe5, 0x39, 0x84, 0xbc, 0x89, 0x5a, 0x95, 0xbd, 
    0x6c, 0x15, 0x77, 0x3e, 0x95, 0x49, 0xca, 0xbd, 0x71, 0xa3, 0x03, 0xbe, 
    0xb8, 0x71, 0x76, 0xbd, 0x74, 0x02, 0x27, 0x3b, 0x54, 0x76, 0x8d, 0x3d, 
    0x76, 0xb1, 0x20, 0xbe, 0xd9, 0x0d, 0x60, 0x3e, 0xac, 0xa9, 0x77, 0x3e, 
    0x12, 0x43, 0x3e, 0xbe, 0xee, 0xe2, 0xcb, 0x3d, 0xe8, 0xe2, 0x7c, 0x3e, 
    0x90, 0x8f, 0x97, 0xbe, 0x4b, 0x49, 0x6e, 0x3e, 0x76, 0x63, 0xce, 0xbd, 
    0x87, 0x07, 0x34, 0xbe, 0xa3, 0x28, 0xa5, 0xbc, 0x8a, 0x67, 0x18, 0x3e, 
    0xbf, 0xfe, 0x77, 0xbd, 0x47, 0x44, 0x40, 0x3e, 0xb5, 0x65, 0xf3, 0x3d, 
    0x8c, 0x01, 0xd8, 0xba, 0x80, 0xa0, 0xeb, 0x3c, 0x6e, 0x00, 0xef, 0x3d, 
    0xb5, 0xd9, 0x9f, 0xbe, 0x59, 0x37, 0x29, 0x3e, 0xb0, 0xdc, 0x94, 0x3d, 
    0x1f, 0x94, 0x45, 0x3e, 0x4a, 0xbf, 0xfd, 0x3d, 0x61, 0x6d, 0xae, 0x3d, 
    0x1f, 0xb2, 0x9d, 0xbe, 0xde, 0x6d, 0x9c, 0x3e, 0xaa, 0x63, 0x8b, 0xbe, 
    0x37, 0x04, 0x95, 0xbe, 0xeb, 0x07, 0x40, 0x3c, 0x28, 0x25, 0x3d, 0xbd, 
    0x49, 0xf4, 0x7d, 0x3e, 0xc1, 0x93, 0xcd, 0xbd, 0xc2, 0xdb, 0x9b, 0x3e, 
    0x57, 0xee, 0x68, 0x3e, 0xba, 0x4f, 0x05, 0x3e, 0xa5, 0x34, 0xaa, 0x3e, 
    0x3f, 0x6d, 0x24, 0xbe, 0xcf, 0x9a, 0x7f, 0xbe, 0x4f, 0x5a, 0x64, 0xbe, 
    0xb9, 0xd3, 0xbb, 0xbd, 0xe5, 0xa5, 0x86, 0x3e, 0xfb, 0x88, 0x11, 0xbe, 
    0xaa, 0xc4, 0x59, 0x3e, 0x7c, 0x9b, 0xd5, 0xbb, 0x68, 0xd4, 0xb9, 0x3e, 
    0x0e, 0x9a, 0x91, 0x3e, 0x18, 0x82, 0xea, 0xbd, 0x3d, 0xce, 0x37, 0x3e, 
    0x3b, 0x05, 0x56, 0xbd, 0xc2, 0xc7, 0x24, 0x3e, 0x84, 0xe2, 0x71, 0x3c, 
    0x42, 0x56, 0xa3, 0x3e, 0x66, 0x39, 0x60, 0x3e, 0xe2, 0xf8, 0x4f, 0x3e, 
    0xb6, 0x69, 0x4c, 0xbe, 0x81, 0xf3, 0xd4, 0xbd, 0x6b, 0x0a, 0xa9, 0xbe, 
    0x62, 0x33, 0xed, 0x3d, 0x88, 0xd0, 0xa0, 0x3e, 0x05, 0x86, 0x9b, 0xbe, 
    0xc9, 0x93, 0x92, 0xbe, 0x68, 0xa7, 0x90, 0x3e, 0xcb, 0xfa, 0x83, 0x3e, 
    0x59, 0xee, 0xad, 0xbd, 0xa0, 0x5e, 0x95, 0x3e, 0xce, 0x4c, 0xab, 0x3d, 
    0x7c, 0x31, 0x51, 0xbe, 0xcb, 0xf3, 0x54, 0xbe, 0x5c, 0x61, 0x01, 0x3d, 
    0x6c, 0xa2, 0x1f, 0x3c, 0x47, 0xc5, 0x12, 0xbd, 0x99, 0x14, 0x80, 0x3e, 
    0xa0, 0xd0, 0x2d, 0x3e, 0x48, 0x67, 0xcb, 0xbd, 0x4b, 0x95, 0x51, 0xbe, 
    0x88, 0x0c, 0x17, 0xbe, 0x13, 0x77, 0x8a, 0xbe, 0x5f, 0x63, 0x5a, 0xbe, 
    0x7c, 0x45, 0x97, 0x3e, 0x70, 0xc4, 0xa0, 0x3e, 0xb3, 0xd7, 0x5f, 0x3d, 
    0x95, 0xd9, 0xa4, 0xbe, 0x5f, 0xdf, 0x8f, 0xbe, 0x12, 0x05, 0x63, 0x3d, 
    0xc3, 0x3e, 0x46, 0x3e, 0x64, 0x3a, 0x79, 0x3e, 0x04, 0x45, 0x18, 0x3e, 
    0xc3, 0x89, 0xe8, 0x3d, 0x83, 0xf8, 0x83, 0xbd, 0xd3, 0x55, 0xf3, 0xbd, 
    0x09, 0xb4, 0x7f, 0xbe, 0xf1, 0xfc, 0x94, 0xbe, 0xf0, 0xac, 0x28, 0xbd, 
    0xca, 0xc6, 0xb1, 0x3e, 0xe1, 0x58, 0x07, 0x3e, 0x53, 0x61, 0x2e, 0x3e, 
    0x36, 0x31, 0x5a, 0x3e, 0x69, 0xef, 0x1f, 0x3e, 0xcc, 0xf5, 0x70, 0xbe, 
    0x64, 0x72, 0x64, 0xbe, 0xad, 0x26, 0x61, 0xbe, 0xf5, 0xa7, 0x1d, 0x3d, 
    0x06, 0x89, 0x76, 0x3d, 0x99, 0xd5, 0x41, 0xbe, 0x7e, 0x11, 0xf1, 0x3c, 
    0x53, 0x98, 0x1d, 0x3e, 0x4e, 0xff, 0x63, 0x3e, 0x06, 0xaf, 0x12, 0x3e, 
    0x77, 0xf7, 0xe2, 0xbc, 0xbc, 0x4f, 0x9f, 0xbe, 0xe7, 0x81, 0x16, 0xbe, 
    0x35, 0x24, 0x9b, 0xbe, 0xf6, 0xca, 0x7f, 0x3e, 0xf2, 0xc5, 0xdf, 0xbd, 
    0x1c, 0xae, 0xe9, 0x3c, 0xd3, 0x8d, 0x19, 0xbe, 0x92, 0x8e, 0x8a, 0xbd, 
    0x3b, 0xe9, 0x19, 0x3e, 0xc1, 0x24, 0x88, 0xbc, 0x61, 0xf6, 0x8d, 0x3e, 
    0x02, 0x96, 0x0a, 0xbe, 0x5a, 0x37, 0xb7, 0x3c, 0xfa, 0x07, 0x88, 0xbe, 
    0x1e, 0x52, 0x9a, 0x3e, 0x01, 0x24, 0x18, 0xbe, 0xc2, 0xbc, 0x5a, 0x3e, 
    0xe1, 0xe0, 0x28, 0xbe, 0x94, 0x0b, 0x62, 0xbe, 0xcd, 0x71, 0x6d, 0x3d, 
    0x72, 0xff, 0x6a, 0x3e, 0x5b, 0x94, 0xc2, 0xbd, 0x32, 0x56, 0x4e, 0xbe, 
    0x74, 0x7c, 0x7a, 0xbe, 0x54, 0x1a, 0x49, 0xbe, 0x7c, 0xaf, 0x5a, 0xbd, 
    0x5e, 0xdf, 0x3e, 0x3e, 0x6f, 0x50, 0x6f, 0x3d, 0x12, 0x8a, 0x85, 0x3e, 
    0xa7, 0x6f, 0xf6, 0xbc, 0x0e, 0xb3, 0x6c, 0xbe, 0x8f, 0x1b, 0x75, 0x3e, 
    0xdc, 0xc0, 0x99, 0xbe, 0x44, 0xd5, 0x77, 0xbe, 0xf8, 0xe4, 0x7f, 0xbe, 
    0x61, 0x0c, 0x47, 0xbe, 0x32, 0xc0, 0xa3, 0x3e, 0x53, 0x9b, 0x8a, 0xbe, 
    0xd7, 0xeb, 0x3a, 0xbe, 0xde, 0xd3, 0xd7, 0x3c, 0x7d, 0x7e, 0x22, 0x3e, 
    0xac, 0x77, 0x8d, 0xbe, 0xfe, 0xfe, 0xd9, 0xbd, 0xe9, 0xc2, 0xe4, 0xbc, 
    0x43, 0x17, 0xe4, 0x3d, 0x8b, 0x96, 0xb0, 0xbc, 0xf0, 0xf3, 0xd9, 0x3d, 
    0x01, 0x96, 0x93, 0x3c, 0x82, 0xbb, 0x07, 0x3e, 0xbb, 0xc3, 0x79, 0x3e, 
    0xd8, 0xe8, 0xe9, 0xbd, 0x92, 0x8c, 0x86, 0xbe, 0xa8, 0x54, 0xb0, 0x3e, 
    0xfa, 0xc5, 0x24, 0xbe, 0xbd, 0x3e, 0x9a, 0x3e, 0x57, 0x1d, 0x8c, 0x3e, 
    0xf0, 0x58, 0xb6, 0xbe, 0x4a, 0x59, 0x91, 0xbe, 0x3e, 0xc5, 0x3d, 0xbe, 
    0x33, 0xe0, 0x78, 0xbe, 0x07, 0xcc, 0x2b, 0x3b, 0x81, 0x7f, 0x97, 0xbe, 
    0xb5, 0x88, 0xa7, 0x3e, 0x99, 0x3e, 0xd7, 0xbd, 0x5d, 0x1c, 0xbc, 0xbd, 
    0x4c, 0x2c, 0x93, 0x3c, 0xa7, 0x5d, 0x83, 0x3d, 0x24, 0x2b, 0x9b, 0xbe, 
    0x4a, 0x6f, 0x3a, 0x3d, 0x6b, 0xd5, 0xeb, 0x3d, 0xfd, 0x35, 0x8f, 0xbe, 
    0x94, 0xd1, 0x24, 0xbe, 0x7c, 0xd0, 0xa7, 0x3d, 0x4a, 0x20, 0x6c, 0x3e, 
    0x3f, 0xe6, 0x55, 0x3d, 0x8b, 0xea, 0x8a, 0x3e, 0xd4, 0x02, 0x8d, 0xbd, 
    0x51, 0xfc, 0x5b, 0xbc, 0x15, 0x16, 0x21, 0xbe, 0x46, 0x75, 0x02, 0xbe, 
    0x70, 0xaf, 0x76, 0xbe, 0xc4, 0x66, 0x08, 0xbd, 0xf9, 0x23, 0xa5, 0xbe, 
    0xe4, 0xd5, 0xbe, 0x3d, 0x3d, 0x6e, 0x3d, 0x3e, 0x11, 0x44, 0xa8, 0x3e, 
    0xac, 0x63, 0x97, 0x3d, 0xe7, 0x11, 0x89, 0xbe, 0x2e, 0xb6, 0x91, 0x3e, 
    0x88, 0xc1, 0xf3, 0x3d, 0x4d, 0x33, 0x6d, 0x3d, 0x1d, 0x88, 0x59, 0x3d, 
    0x3d, 0xea, 0x47, 0x3e, 0xa0, 0xa2, 0x7d, 0xbe, 0x9c, 0x40, 0xac, 0x3d, 
    0x7d, 0xfa, 0x95, 0xbc, 0x65, 0xe9, 0x84, 0x3e, 0xe2, 0x7e, 0x67, 0xbc, 
    0x39, 0x54, 0x7c, 0xbd, 0x24, 0xa1, 0xa4, 0x3c, 0xcb, 0x39, 0x12, 0xbd, 
    0xab, 0xea, 0x85, 0xbe, 0x6e, 0x21, 0x9b, 0xbe, 0xad, 0x24, 0xf5, 0x3d, 
    0x9b, 0x72, 0x61, 0xbe, 0x08, 0xaf, 0xb9, 0x3e, 0x74, 0x7c, 0xaa, 0x3e, 
    0x31, 0xe9, 0x99, 0x3e, 0x65, 0x60, 0x9f, 0xbe, 0x58, 0xd6, 0x87, 0x3d, 
    0xf5, 0x8a, 0xaa, 0xbe, 0x5d, 0x3e, 0xd3, 0x3a, 0x46, 0xf0, 0x0d, 0x3d, 
    0x03, 0x71, 0x49, 0xbe, 0x90, 0x7a, 0x33, 0x3d, 0x12, 0x27, 0xfc, 0x3d, 
    0xff, 0x64, 0x18, 0xbe, 0xd2, 0xdf, 0x99, 0x3e, 0x0c, 0x7d, 0x5b, 0x3e, 
    0xbf, 0xd9, 0xd2, 0xbb, 0xee, 0x7b, 0x42, 0xbe, 0xdb, 0xad, 0xa3, 0x3e, 
    0xfb, 0xa6, 0x5f, 0xbe, 0x60, 0x49, 0x27, 0xbe, 0x7b, 0x78, 0xab, 0x3e, 
    0xd2, 0x66, 0x73, 0xbd, 0x46, 0x18, 0x93, 0x3e, 0x48, 0x21, 0x68, 0xbe, 
    0xaf, 0x60, 0x83, 0x3d, 0x6d, 0xa4, 0x7d, 0xbe, 0xe5, 0x5e, 0xcc, 0xbd, 
    0x83, 0xcd, 0xaf, 0x3e, 0x19, 0x4d, 0x34, 0xbe, 0x25, 0x16, 0x11, 0x3d, 
    0x8a, 0xa0, 0x02, 0x3e, 0xc7, 0x8d, 0xcc, 0x3d, 0x28, 0x03, 0x96, 0x3e, 
    0x37, 0xcb, 0x6e, 0xbe, 0x47, 0x7b, 0x6e, 0xbd, 0x65, 0xd6, 0x14, 0x3d, 
    0xda, 0xd2, 0xa8, 0x3d, 0x71, 0x38, 0x01, 0xbd, 0xdd, 0x01, 0xe2, 0x3d, 
    0x1b, 0x7e, 0x93, 0x3e, 0x7c, 0x31, 0x10, 0x3e, 0x0d, 0x59, 0x8e, 0xbe, 
    0xa8, 0x23, 0x7f, 0xbe, 0x84, 0x31, 0x74, 0xbd, 0xfa, 0x55, 0x93, 0x3c, 
    0xa6, 0xc4, 0x0b, 0xbe, 0x23, 0x02, 0x85, 0x3e, 0x50, 0x1e, 0x50, 0x3e, 
    0x27, 0x75, 0x5c, 0xbd, 0x4d, 0xa9, 0x4c, 0x3e, 0x2c, 0xbc, 0x10, 0x3d, 
    0xa6, 0x9f, 0x38, 0xbe, 0xa5, 0x6a, 0x30, 0x3e, 0xf8, 0x4d, 0xa7, 0x3e, 
    0xdd, 0xa1, 0x91, 0xbe, 0x47, 0x69, 0xa6, 0xbe, 0x5a, 0x22, 0xd9, 0xbc, 
    0xe8, 0x0e, 0x14, 0x3d, 0x42, 0x10, 0xfc, 0x3c, 0x37, 0x7c, 0x4d, 0x3e, 
    0x31, 0xeb, 0x86, 0xbd, 0xd2, 0xdb, 0x21, 0x3d, 0xf5, 0x1d, 0x20, 0x3e, 
    0x75, 0x4f, 0x86, 0xbe, 0xfe, 0x68, 0xad, 0x3e, 0xab, 0x5b, 0x2b, 0x3e, 
    0x5e, 0x88, 0x48, 0x3e, 0x30, 0x86, 0xc9, 0xbd, 0x4a, 0x57, 0xfc, 0x3a, 
    0xf0, 0x8a, 0x65, 0x3e, 0x61, 0xed, 0x94, 0xbe, 0xb5, 0xf7, 0x92, 0xbe, 
    0x0e, 0x36, 0x89, 0xbe, 0xc2, 0x1c, 0x85, 0xbe, 0x3d, 0xb9, 0x44, 0xbe, 
    0x08, 0xac, 0x2a, 0x3e, 0x8a, 0x14, 0x76, 0xbe, 0x0a, 0xb3, 0x97, 0xbe, 
    0x11, 0xba, 0x6c, 0xbc, 0x78, 0x51, 0xbe, 0x3d, 0x4e, 0x9d, 0x05, 0xbc, 
    0x1c, 0x03, 0x06, 0xbe, 0xff, 0xd4, 0x0f, 0x3e, 0x33, 0xd0, 0x5b, 0x3e, 
    0x96, 0xf7, 0xff, 0xff, 0x04, 0x00, 0x00, 0x00, 0x00, 0x08, 0x00, 0x00, 
    0x8a, 0x21, 0xcf, 0xbd, 0x32, 0x8b, 0x86, 0xbe, 0x40, 0xe2, 0x82, 0xbd, 
    0x91, 0x79, 0x18, 0x3e, 0x10, 0xbc, 0xbd, 0x3d, 0x57, 0x3b, 0xe6, 0xbd, 
    0x3d, 0x27, 0xa4, 0x3e, 0x5f, 0x6d, 0xd4, 0xbd, 0xf7, 0xd5, 0x0d, 0x3c, 
    0xd0, 0xfa, 0x8b, 0xbd, 0x30, 0xdb, 0x84, 0x3c, 0x25, 0xe6, 0xf9, 0xbb, 
    0xa5, 0x74, 0x29, 0x3e, 0x10, 0xbd, 0x64, 0xbe, 0xb5, 0x9f, 0x84, 0x3e, 
    0xbb, 0xf7, 0xdc, 0x3a, 0xcc, 0xbb, 0x53, 0xbe, 0x7e, 0xeb, 0x1f, 0xbe, 
    0x2a, 0x4b, 0x28, 0xbd, 0xfc, 0x03, 0x5e, 0xbd, 0x9c, 0x39, 0x48, 0x3e, 
    0x4b, 0x65, 0x04, 0xbd, 0x3d, 0x20, 0xa3, 0x3e, 0xf0, 0xe8, 0xf1, 0xbb, 
    0xb4, 0xad, 0x92, 0x3e, 0x75, 0x99, 0x81, 0x3c, 0x4b, 0x88, 0x2d, 0xbe, 
    0x7c, 0x15, 0x94, 0x3d, 0x8c, 0xca, 0x70, 0x3e, 0xe4, 0x89, 0x76, 0xbe, 
    0xa6, 0xb1, 0x42, 0x3e, 0xb8, 0x9c, 0x4e, 0x3e, 0x7d, 0xf0, 0x9c, 0x3e, 
    0xe0, 0xe7, 0xd3, 0x3c, 0x7b, 0xec, 0xc3, 0xbd, 0x0a, 0x02, 0x93, 0xbd, 
    0x7c, 0xdd, 0xa0, 0xbe, 0xe4, 0x06, 0x66, 0x3e, 0x63, 0x47, 0xad, 0x3e, 
    0xf8, 0xf0, 0x48, 0x3e, 0x72, 0x38, 0x67, 0x3e, 0x0d, 0x93, 0x9b, 0x3e, 
    0x41, 0xb6, 0x67, 0xbd, 0x48, 0x2e, 0x13, 0xbe, 0x2f, 0xde, 0x58, 0xbd, 
    0x58, 0xd3, 0xb1, 0x3e, 0x67, 0xaf, 0x75, 0xbe, 0xe3, 0xc1, 0x71, 0xbe, 
    0x0a, 0x65, 0x00, 0xbe, 0xa6, 0x50, 0x8b, 0xbe, 0xc3, 0x20, 0x79, 0x3b, 
    0xb8, 0x5c, 0x24, 0x3d, 0x90, 0x97, 0x5d, 0xbc, 0xe5, 0x73, 0xcc, 0xbd, 
    0xf9, 0x78, 0xbd, 0x3e, 0x29, 0x98, 0x19, 0x3e, 0x27, 0xb9, 0x6f, 0xbe, 
    0x78, 0x1d, 0x39, 0xbe, 0x64, 0x14, 0xb0, 0x3c, 0x9f, 0x5a, 0xfe, 0xbd, 
    0x7d, 0x43, 0x91, 0xbe, 0xed, 0x22, 0x4e, 0x3d, 0xe3, 0xb9, 0x99, 0x3d, 
    0x39, 0xad, 0xfc, 0x3d, 0x3c, 0xd8, 0x37, 0xbe, 0x86, 0xc1, 0x99, 0x3b, 
    0x76, 0x12, 0x59, 0x3e, 0x80, 0x01, 0x40, 0x3e, 0x29, 0x9e, 0x60, 0xbe, 
    0x65, 0x6e, 0xc3, 0x3c, 0x94, 0xe3, 0xa5, 0x3e, 0x99, 0xaf, 0x42, 0xbe, 
    0x91, 0x7d, 0xc2, 0x3d, 0xf6, 0xab, 0xb1, 0x3e, 0x4f, 0x13, 0xe0, 0x3e, 
    0xb5, 0x51, 0xa1, 0x3e, 0xb0, 0x26, 0x9c, 0x3d, 0x3c, 0xe5, 0xa1, 0xbd, 
    0x7b, 0x31, 0x3e, 0xbe, 0xb4, 0xe5, 0x61, 0xbc, 0xbc, 0xf8, 0xa4, 0x3e, 
    0x8b, 0xb7, 0x9e, 0x3e, 0x53, 0x32, 0xc1, 0xbd, 0x1d, 0xde, 0xa1, 0xbd, 
    0x7c, 0xba, 0x11, 0x3e, 0x26, 0xf9, 0x9c, 0xbe, 0x6a, 0xd9, 0xf4, 0xbc, 
    0x46, 0x36, 0x1e, 0xbd, 0x8e, 0xfb, 0x1e, 0x3e, 0xc2, 0xe0, 0xa1, 0xbd, 
    0x0b, 0xed, 0x93, 0xbe, 0xdd, 0x75, 0x1c, 0xbc, 0x1e, 0x8a, 0x04, 0xbe, 
    0x82, 0xb1, 0x80, 0x3e, 0xa5, 0x1c, 0x4b, 0xbd, 0xd9, 0x42, 0xa8, 0x3e, 
    0xc2, 0x3f, 0x7c, 0x3e, 0xbe, 0xb2, 0xc0, 0xbc, 0x66, 0xa2, 0x03, 0xbd, 
    0x4d, 0xee, 0x94, 0xbd, 0x93, 0x61, 0xf0, 0x3c, 0xd0, 0x43, 0x17, 0x3e, 
    0x77, 0xdd, 0x8c, 0xbe, 0xf7, 0x43, 0x20, 0xbd, 0x42, 0x93, 0x21, 0x3e, 
    0x03, 0x1d, 0x89, 0xbe, 0x3b, 0xc2, 0xa2, 0x3e, 0x98, 0x08, 0x2d, 0x3e, 
    0x16, 0x43, 0x37, 0x3e, 0x0f, 0xe8, 0x34, 0xbe, 0xe8, 0x57, 0xa0, 0xbc, 
    0xa4, 0x10, 0xa4, 0xbe, 0xea, 0xe8, 0xf6, 0xbd, 0x3d, 0xa7, 0xcd, 0xbd, 
    0x8f, 0xfb, 0xa4, 0xbe, 0xcc, 0x0e, 0x6f, 0xbe, 0xb9, 0xbe, 0x9a, 0xbe, 
    0x74, 0x10, 0xe5, 0x3c, 0x6e, 0xea, 0x68, 0x3e, 0x2f, 0x37, 0xbc, 0x3c, 
    0xba, 0x90, 0xfa, 0x3d, 0x8b, 0xb0, 0x8c, 0x3e, 0xf8, 0xc4, 0x77, 0xbe, 
    0xb6, 0xd7, 0xdb, 0xbd, 0x64, 0x2d, 0x7e, 0xbe, 0xba, 0xc3, 0x66, 0x3e, 
    0xaa, 0xa7, 0x99, 0x3e, 0xdf, 0xab, 0x11, 0xbe, 0x45, 0x08, 0x7b, 0xbd, 
    0x3b, 0x97, 0x04, 0xbc, 0xd4, 0x2f, 0xf4, 0x3d, 0xe4, 0xcb, 0x00, 0x3e, 
    0x00, 0x54, 0x80, 0x3e, 0xb9, 0x02, 0x9e, 0xbe, 0xf4, 0x3b, 0x45, 0x3e, 
    0x4c, 0xc5, 0x46, 0x3e, 0x14, 0xce, 0x47, 0xbe, 0xc7, 0x26, 0x43, 0x3e, 
    0xb7, 0xb8, 0xe0, 0x3d, 0xa3, 0x0b, 0xa8, 0xbe, 0x22, 0x8e, 0xc5, 0xbd, 
    0x10, 0xf5, 0x67, 0xbe, 0x0d, 0xd7, 0xc5, 0xbb, 0x42, 0x66, 0x5c, 0x3e, 
    0xea, 0x45, 0x95, 0x3e, 0xb9, 0x0e, 0xa5, 0x3d, 0x26, 0x75, 0x85, 0x3e, 
    0x86, 0x6d, 0x0c, 0x3b, 0x03, 0x40, 0xa0, 0x3c, 0xd2, 0x15, 0x8d, 0x3e, 
    0xf2, 0xd6, 0x24, 0x3e, 0x78, 0xb8, 0x76, 0xbd, 0x2b, 0x89, 0x90, 0xbe, 
    0xbc, 0x0b, 0xda, 0xbd, 0x07, 0xd1, 0x35, 0x3e, 0x88, 0x84, 0x98, 0xbd, 
    0x36, 0xa3, 0xee, 0x3c, 0x24, 0x58, 0x2e, 0xbe, 0x27, 0x18, 0x6d, 0x3e, 
    0xee, 0xea, 0x8a, 0xbd, 0x86, 0x6c, 0x9c, 0xbe, 0x9e, 0x1e, 0x6d, 0x3e, 
    0xea, 0xe3, 0x8a, 0xbd, 0xb8, 0x36, 0x6b, 0x3e, 0xbd, 0x7e, 0x91, 0x3d, 
    0xc6, 0xc7, 0x38, 0x3e, 0x5b, 0x34, 0x8a, 0xbe, 0xe0, 0x4c, 0xd2, 0xbd, 
    0x1d, 0x54, 0x5c, 0xbe, 0xf3, 0xe2, 0xaf, 0x3d, 0x49, 0xff, 0xef, 0xbd, 
    0x17, 0x55, 0x89, 0xbe, 0xc9, 0x7f, 0x8c, 0x3d, 0xec, 0x74, 0xc1, 0x3e, 
    0xf7, 0xc2, 0x99, 0x3e, 0x9c, 0xb8, 0xac, 0x3e, 0xf7, 0xb7, 0x93, 0xbd, 
    0xd9, 0x0a, 0x81, 0xbe, 0x20, 0x3d, 0x31, 0x3d, 0x18, 0xe2, 0x47, 0xbe, 
    0x3b, 0x97, 0xc1, 0xbc, 0xd4, 0x19, 0x06, 0xbe, 0x87, 0x69, 0xca, 0x3e, 
    0x71, 0x84, 0x92, 0x3e, 0x63, 0x16, 0x0b, 0x3e, 0x2c, 0xc5, 0x80, 0x3e, 
    0x1a, 0xe9, 0xe8, 0x3c, 0x02, 0x9a, 0x86, 0x3e, 0x17, 0xba, 0x08, 0x3d, 
    0xdc, 0x50, 0x15, 0x3e, 0x93, 0x0f, 0x85, 0x3e, 0x44, 0x59, 0x04, 0xbe, 
    0xae, 0xed, 0xbe, 0xbd, 0x1f, 0xa1, 0xd6, 0x3b, 0x2f, 0xee, 0xfa, 0xbd, 
    0x88, 0xf4, 0xc2, 0xbd, 0x70, 0xd8, 0xe2, 0xbd, 0x70, 0x8a, 0xd5, 0x3c, 
    0xee, 0x59, 0x03, 0xbe, 0x7c, 0x66, 0x87, 0x3e, 0x7c, 0x03, 0x1a, 0x3e, 
    0x2a, 0x41, 0x97, 0x3e, 0x81, 0xc3, 0x92, 0x3d, 0x38, 0xc2, 0x94, 0xbe, 
    0xfe, 0x35, 0x85, 0xbb, 0xa9, 0xf6, 0xfb, 0x3d, 0x9c, 0x87, 0x9e, 0x3e, 
    0xa9, 0x03, 0x90, 0x3e, 0x3b, 0x1c, 0x45, 0xbe, 0x1a, 0x8e, 0x6e, 0x3e, 
    0x66, 0xda, 0x84, 0x3e, 0x87, 0x83, 0x1f, 0xbd, 0x86, 0x73, 0x6e, 0x3e, 
    0x25, 0x3c, 0xe0, 0xbd, 0xec, 0x94, 0xdc, 0x3d, 0x0e, 0x19, 0x3b, 0x3e, 
    0x53, 0x20, 0x69, 0x3e, 0x5d, 0xcc, 0x83, 0x3e, 0xdd, 0x6d, 0x81, 0x3e, 
    0x5a, 0xba, 0x8f, 0xbe, 0x88, 0xff, 0xb2, 0xbd, 0x1d, 0xe7, 0x0c, 0x3e, 
    0x5b, 0xb3, 0x82, 0xbe, 0xcc, 0x68, 0x9a, 0x3e, 0xe7, 0x95, 0xb2, 0xba, 
    0xe6, 0xe7, 0xc8, 0x3c, 0x5c, 0xfa, 0x1d, 0xbe, 0xa4, 0xfc, 0x0c, 0x3e, 
    0x39, 0x90, 0x18, 0xbe, 0x72, 0x96, 0x3c, 0x3e, 0xa3, 0x6d, 0x19, 0xbe, 
    0x4c, 0x16, 0x8b, 0x3e, 0xc4, 0xed, 0x34, 0xbe, 0xd7, 0x43, 0x5c, 0xbe, 
    0x2e, 0x71, 0x4c, 0xb2, 0x75, 0x4d, 0x24, 0xbd, 0x3b, 0x32, 0xcb, 0xbd, 
    0x58, 0xdc, 0x7b, 0xbe, 0x9e, 0xce, 0x5b, 0x3e, 0xa6, 0xe8, 0x2f, 0x3d, 
    0xd8, 0xd5, 0x93, 0xbd, 0x1c, 0xa7, 0x3a, 0xbe, 0x94, 0xe2, 0x7c, 0x3d, 
    0xa7, 0xa9, 0x97, 0x3e, 0x89, 0x08, 0x41, 0x3d, 0x2f, 0xba, 0xfe, 0xbd, 
    0x21, 0x26, 0x1f, 0x3a, 0x9d, 0x4a, 0x9c, 0x3d, 0x57, 0xd5, 0x3f, 0x3e, 
    0x64, 0x9c, 0xdc, 0xbd, 0xfd, 0x5f, 0x76, 0xbe, 0xb2, 0x5f, 0x80, 0xbd, 
    0x48, 0xb5, 0xe3, 0xbd, 0x45, 0x5d, 0x95, 0xbe, 0x70, 0x21, 0x3e, 0x3c, 
    0x17, 0x8a, 0x8f, 0xbd, 0x3b, 0xf2, 0x95, 0x3e, 0x8b, 0x7e, 0x47, 0x3d, 
    0xab, 0x97, 0x22, 0xbe, 0xc8, 0x8d, 0x6f, 0xbd, 0xab, 0x87, 0x8a, 0x3e, 
    0xb6, 0xfa, 0x45, 0x3e, 0x78, 0x34, 0x26, 0x3e, 0x26, 0x4d, 0x28, 0x3e, 
    0x36, 0xdc, 0x0b, 0x3e, 0xb5, 0x68, 0x76, 0xbe, 0x14, 0x4e, 0x5d, 0xbe, 
    0x6f, 0x8c, 0xa0, 0xbe, 0x23, 0xe1, 0x4a, 0xbe, 0xf4, 0x5d, 0x77, 0x3e, 
    0xf5, 0xf5, 0x51, 0x3c, 0x33, 0x96, 0x85, 0xbe, 0x5f, 0xc9, 0x15, 0xbd, 
    0x52, 0x19, 0xc9, 0xbd, 0x41, 0x0a, 0x7e, 0x3e, 0x48, 0xa1, 0x4b, 0xbd, 
    0x7c, 0x61, 0x97, 0x3d, 0x03, 0xc4, 0xc0, 0x3c, 0x8a, 0x48, 0x2f, 0x3e, 
    0x8a, 0x3c, 0x00, 0xbe, 0x5b, 0x9b, 0x82, 0x3e, 0xf3, 0xbc, 0x2f, 0xbe, 
    0x24, 0x6e, 0x3a, 0x3e, 0x0b, 0x43, 0xa2, 0x3e, 0x22, 0x2b, 0x57, 0xbe, 
    0xff, 0xfc, 0x32, 0x3e, 0x59, 0x43, 0xaf, 0x3e, 0xfd, 0x65, 0x8a, 0x3d, 
    0x6d, 0x9f, 0x5e, 0xbe, 0xce, 0x5d, 0x4e, 0x3e, 0x47, 0x5c, 0x9d, 0xbe, 
    0xf2, 0x74, 0x96, 0x3e, 0x5c, 0x57, 0xf2, 0xbc, 0xf1, 0x43, 0x6e, 0x3e, 
    0xa3, 0x25, 0x0b, 0xbe, 0xb0, 0xaa, 0x21, 0x3e, 0xec, 0x01, 0x83, 0xbe, 
    0xe0, 0x5f, 0xb5, 0xbe, 0x29, 0xa7, 0xdb, 0x3d, 0xc4, 0x81, 0x98, 0x3b, 
    0xcb, 0x36, 0x32, 0x3e, 0x39, 0xa7, 0x2e, 0xbb, 0xd7, 0xe7, 0x95, 0xbe, 
    0x6c, 0x1b, 0xaa, 0x3e, 0x67, 0x51, 0xa1, 0x3c, 0xd6, 0x8c, 0x01, 0xbe, 
    0x3e, 0xa0, 0x8c, 0xbe, 0x73, 0xf6, 0x0e, 0xbe, 0x0d, 0x18, 0x3b, 0x3e, 
    0x06, 0x50, 0xa6, 0xbd, 0x91, 0xdb, 0x6c, 0xbb, 0x18, 0xe0, 0x92, 0x3d, 
    0x59, 0xb4, 0x9d, 0x3b, 0x14, 0x30, 0x2f, 0x3e, 0x46, 0xa6, 0xc6, 0x3d, 
    0x41, 0xb2, 0x8d, 0x3e, 0xde, 0x4a, 0x2e, 0xbe, 0x4d, 0xfd, 0xa4, 0xbb, 
    0xa7, 0xe0, 0x79, 0x3e, 0xb4, 0x29, 0xa3, 0xbe, 0xf5, 0xa0, 0x86, 0x3e, 
    0x7c, 0x36, 0x04, 0x3e, 0x52, 0x27, 0x0a, 0xbe, 0xbc, 0x07, 0xb3, 0x3e, 
    0xdb, 0x7c, 0x47, 0x3e, 0xbf, 0x59, 0x1b, 0xbe, 0x7d, 0x45, 0x3b, 0x3d, 
    0x46, 0x94, 0x80, 0x3e, 0xf5, 0x81, 0xa0, 0xbc, 0x49, 0xa1, 0x99, 0x3e, 
    0x67, 0x19, 0x57, 0x3e, 0x86, 0x1d, 0x0d, 0x3c, 0x3f, 0x81, 0x13, 0xbe, 
    0x13, 0x87, 0xb9, 0x3e, 0x9c, 0xa3, 0x55, 0x3d, 0x33, 0xe1, 0xb6, 0x3e, 
    0xf8, 0x32, 0xc4, 0x3d, 0x14, 0x2a, 0x81, 0xbe, 0x99, 0x55, 0x69, 0x3e, 
    0x45, 0xd6, 0xa0, 0xbe, 0x31, 0xe5, 0x0e, 0x3e, 0x49, 0xc7, 0x19, 0xbe, 
    0x82, 0xe4, 0x9f, 0xbe, 0xfd, 0x56, 0x31, 0xbe, 0x24, 0xa9, 0xb2, 0x3e, 
    0x1d, 0xeb, 0x8c, 0x3e, 0xf3, 0xed, 0x48, 0xbd, 0xe2, 0x3d, 0x26, 0x3e, 
    0x85, 0xfd, 0x84, 0xbe, 0x06, 0xd5, 0xc7, 0x3d, 0x3c, 0x27, 0x72, 0xbe, 
    0x21, 0x03, 0xaf, 0xbe, 0x30, 0x2b, 0x55, 0xbd, 0x0a, 0x74, 0xae, 0xbc, 
    0xb3, 0x55, 0x77, 0xbe, 0x31, 0x90, 0xa3, 0xbd, 0x74, 0x2d, 0x7a, 0x3e, 
    0xaa, 0x8f, 0x99, 0xbd, 0xd0, 0xd5, 0x81, 0x3e, 0x28, 0x93, 0x6a, 0x3e, 
    0xed, 0xb6, 0x0e, 0xbe, 0xaf, 0x48, 0x85, 0x3e, 0x5a, 0xf5, 0xa9, 0x3e, 
    0xc7, 0x20, 0x04, 0xbd, 0xeb, 0xcc, 0x29, 0xbe, 0xe1, 0x73, 0x98, 0xbd, 
    0x0d, 0x6a, 0x7f, 0xbe, 0xa5, 0x70, 0xbd, 0xbd, 0x39, 0x27, 0xf4, 0xbb, 
    0x64, 0x85, 0x4a, 0xbc, 0x69, 0xbf, 0x4b, 0xbe, 0x0d, 0xb5, 0xd5, 0x3d, 
    0xcc, 0x59, 0x15, 0xbe, 0xef, 0x75, 0x2c, 0xbe, 0xc0, 0x8e, 0x5a, 0xbe, 
    0xd0, 0x96, 0x34, 0x3e, 0xb5, 0x73, 0x55, 0xbd, 0xc7, 0x6f, 0x88, 0x3e, 
    0x96, 0x1d, 0xdc, 0x3c, 0x45, 0x38, 0x03, 0x3e, 0x80, 0xeb, 0xbf, 0x3d, 
    0xce, 0xf6, 0xcc, 0xbd, 0xfd, 0x3c, 0x7d, 0x3e, 0xba, 0xe4, 0xe7, 0xbd, 
    0x46, 0x5e, 0x01, 0x3e, 0x7f, 0x54, 0xc2, 0x3e, 0x5b, 0x1f, 0xbb, 0x3e, 
    0x09, 0xf7, 0x97, 0x3e, 0x33, 0x67, 0x1f, 0x3e, 0x7a, 0x11, 0x41, 0x3e, 
    0xf9, 0xe8, 0x5e, 0x3e, 0x34, 0x1a, 0x58, 0x3e, 0x01, 0x7b, 0xac, 0x3e, 
    0x27, 0xde, 0xa1, 0x3d, 0x83, 0x33, 0x96, 0x3e, 0x9a, 0xdb, 0x28, 0x3e, 
    0x1c, 0x5d, 0x9b, 0x3e, 0x43, 0x3b, 0x8b, 0x3d, 0x78, 0x4a, 0x6a, 0x3d, 
    0x0f, 0x85, 0x44, 0x3e, 0x2f, 0x95, 0x06, 0x3e, 0x34, 0xa0, 0x7a, 0x3e, 
    0x4b, 0x97, 0x2f, 0xbe, 0x84, 0x28, 0x95, 0xbe, 0xe9, 0x17, 0x31, 0xbd, 
    0x1f, 0x98, 0xa1, 0x3e, 0x33, 0xef, 0x54, 0x3c, 0xfc, 0xee, 0x90, 0x3c, 
    0x45, 0x21, 0xb4, 0xbe, 0x54, 0x11, 0xe5, 0x3d, 0x55, 0xc9, 0x9d, 0x3e, 
    0x8f, 0xdf, 0x6f, 0x3d, 0x44, 0x10, 0x3e, 0x3e, 0xd5, 0x9e, 0xa2, 0x3e, 
    0x49, 0x3e, 0x9e, 0xbe, 0x78, 0xdd, 0x4f, 0xbe, 0x9b, 0x9c, 0x99, 0x3d, 
    0xe7, 0xb7, 0xbe, 0x3d, 0xef, 0x83, 0x66, 0x3e, 0xe4, 0xe6, 0x6a, 0x3e, 
    0x27, 0x66, 0xd0, 0xbe, 0xf7, 0x05, 0x45, 0xbe, 0xfa, 0xe7, 0x82, 0xbe, 
    0x3e, 0xa4, 0x7c, 0x3e, 0x33, 0x7a, 0x9d, 0x3e, 0xa0, 0x20, 0x82, 0xbe, 
    0x5a, 0x23, 0x9c, 0xbd, 0x29, 0xca, 0xa6, 0xbe, 0x80, 0x35, 0x82, 0x3b, 
    0x6c, 0x3c, 0x1b, 0x3d, 0xb6, 0x34, 0x0d, 0x3e, 0x55, 0xb4, 0x3e, 0x3e, 
    0xa0, 0xa0, 0x94, 0xbe, 0x70, 0xa2, 0x2e, 0x3e, 0xe7, 0x58, 0xbc, 0x3d, 
    0x10, 0x33, 0x05, 0xbd, 0x77, 0x04, 0x98, 0xbe, 0xfd, 0x9d, 0xae, 0xbe, 
    0xe9, 0xcb, 0x6a, 0x3e, 0x19, 0x96, 0xe6, 0xbd, 0xae, 0xc3, 0x9e, 0xbd, 
    0xed, 0x73, 0x87, 0xbe, 0xf7, 0xa3, 0xa8, 0xbe, 0x33, 0x3c, 0x2a, 0x3d, 
    0x0e, 0x77, 0xc9, 0xbc, 0xa8, 0x01, 0x42, 0x3e, 0x08, 0xfb, 0x5c, 0xbe, 
    0xf4, 0x6a, 0xa7, 0xbe, 0xcf, 0xac, 0x59, 0x3d, 0xac, 0xa7, 0xef, 0x3d, 
    0xff, 0x2e, 0x11, 0xbe, 0x6c, 0x05, 0x0d, 0x3d, 0xf7, 0x0f, 0x88, 0x3e, 
    0xa6, 0x48, 0x10, 0xbe, 0x04, 0xa8, 0x9c, 0xbe, 0xd1, 0x6d, 0xf6, 0x3d, 
    0x20, 0x0c, 0x9c, 0x3d, 0xf2, 0x62, 0xbb, 0x3e, 0x0f, 0xe4, 0xa9, 0x3e, 
    0x80, 0x84, 0x38, 0xbe, 0x6b, 0xf8, 0xd4, 0x3e, 0xad, 0x26, 0x5c, 0xbe, 
    0x8a, 0x03, 0x80, 0x3e, 0xb4, 0xb5, 0xed, 0x3c, 0x61, 0x9c, 0x0a, 0xbe, 
    0x4e, 0xf1, 0x97, 0xbe, 0x25, 0x79, 0x89, 0xbe, 0xa8, 0x96, 0x30, 0x3e, 
    0x24, 0x2b, 0x9a, 0x3d, 0x0f, 0xb9, 0xa5, 0xbe, 0x90, 0x50, 0x87, 0x3e, 
    0x75, 0x4a, 0x4f, 0x3e, 0x85, 0x57, 0x01, 0x3e, 0x53, 0x81, 0xb1, 0x3e, 
    0xc3, 0xa4, 0x86, 0xbe, 0x4d, 0x7f, 0x36, 0xbe, 0xe8, 0x5f, 0xc7, 0xbe, 
    0xba, 0x19, 0xac, 0xbe, 0x8a, 0xab, 0xa8, 0x3e, 0xf9, 0x97, 0x0d, 0x3e, 
    0x61, 0x30, 0xbc, 0xbe, 0x9b, 0x6a, 0x30, 0xbe, 0x00, 0xf0, 0xe8, 0x3d, 
    0xba, 0x63, 0x0f, 0x3d, 0x3f, 0xa1, 0xb7, 0x3e, 0xde, 0x0a, 0x01, 0x3e, 
    0x5a, 0x62, 0x8c, 0xbe, 0xd8, 0x5f, 0x4e, 0x3e, 0x5b, 0x45, 0xab, 0xbe, 
    0x61, 0x4a, 0xb6, 0x3d, 0x41, 0x06, 0x66, 0xbe, 0x8a, 0x70, 0xd2, 0xbd, 
    0x99, 0xfd, 0x69, 0xbe, 0xc3, 0xf9, 0x0b, 0xbe, 0x08, 0xba, 0xa1, 0x3e, 
    0xbe, 0xb1, 0x58, 0x3e, 0xb9, 0xda, 0x00, 0xbe, 0xcf, 0x4e, 0x83, 0x3e, 
    0x19, 0x2c, 0x08, 0x3e, 0x4f, 0xad, 0x55, 0x3e, 0x74, 0x05, 0x14, 0x3e, 
    0xf5, 0x08, 0xbb, 0x3e, 0x68, 0x4a, 0x03, 0x3e, 0x3d, 0x57, 0x19, 0xbe, 
    0x43, 0x75, 0x8d, 0xbe, 0x7e, 0x16, 0xf6, 0xbd, 0x83, 0x7d, 0xad, 0xbe, 
    0x2d, 0x0c, 0x84, 0x3e, 0x01, 0xcf, 0x62, 0x3e, 0x9b, 0xa3, 0xb3, 0xbe, 
    0xff, 0x2c, 0x81, 0x3d, 0x79, 0xba, 0x37, 0x3e, 0xa2, 0xff, 0xff, 0xff, 
    0x04, 0x00, 0x00, 0x00, 0x40, 0x00, 0x00, 0x00, 0x52, 0x35, 0x68, 0x3e, 
    0xe7, 0x11, 0x68, 0x3d, 0x90, 0xce, 0x54, 0xbe, 0xb6, 0x47, 0x60, 0xbe, 
    0xef, 0xf4, 0x46, 0x3d, 0x9f, 0x58, 0x38, 0x3e, 0x25, 0xc8, 0x15, 0x3e, 
    0x25, 0xf5, 0x00, 0x3f, 0x8d, 0x04, 0xde, 0x3e, 0x3e, 0xf4, 0x02, 0xbf, 
    0x9e, 0x4d, 0x1b, 0x3f, 0xee, 0x7c, 0xfd, 0xba, 0xa5, 0xae, 0x52, 0xbe, 
    0x69, 0xe5, 0xaa, 0xbe, 0x31, 0x24, 0xb9, 0xbd, 0xed, 0xb7, 0x9d, 0x3e, 
    0xee, 0xff, 0xff, 0xff, 0x04, 0x00, 0x00, 0x00, 0x04, 0x00, 0x00, 0x00, 
    0x4a, 0x66, 0xa8, 0xbd, 0x00, 0x00, 0x06, 0x00, 0x08, 0x00, 0x04, 0x00, 
    0x06, 0x00, 0x00, 0x00, 0x04, 0x00, 0x00, 0x00, 0x40, 0x00, 0x00, 0x00, 
    0xbd, 0x4b, 0xa4, 0xbd, 0xb1, 0xa9, 0x95, 0xbc, 0x96, 0x43, 0xe6, 0x3d, 
    0x51, 0x88, 0xe6, 0x3d, 0x21, 0xad, 0x10, 0x3c, 0xc9, 0x7a, 0x2f, 0x3d, 
    0xaf, 0xb6, 0x38, 0xbd, 0x2d, 0x6d, 0xe7, 0xbb, 0xa0, 0x60, 0xd0, 0x3c, 
    0x42, 0xc5, 0x93, 0x3b, 0xa4, 0xf3, 0x93, 0xbc, 0xa2, 0x8f, 0x9a, 0x3c, 
    0xe4, 0x75, 0xae, 0x3d, 0xea, 0x09, 0x6a, 0xbc, 0x24, 0xac, 0xcd, 0x3d, 
    0xef, 0xd0, 0x92, 0x3c, 0x34, 0xfb, 0xff, 0xff, 0x38, 0xfb, 0xff, 0xff, 
    0x0f, 0x00, 0x00, 0x00, 0x4d, 0x4c, 0x49, 0x52, 0x20, 0x43, 0x6f, 0x6e, 
    0x76, 0x65, 0x72, 0x74, 0x65, 0x64, 0x2e, 0x00, 0x01, 0x00, 0x00, 0x00, 
    0x14, 0x00, 0x00, 0x00, 0x00, 0x00, 0x0e, 0x00, 0x18, 0x00, 0x14, 0x00, 
    0x10, 0x00, 0x0c, 0x00, 0x08, 0x00, 0x04, 0x00, 0x0e, 0x00, 0x00, 0x00, 
    0x14, 0x00, 0x00, 0x00, 0x1c, 0x00, 0x00, 0x00, 0xe8, 0x00, 0x00, 0x00, 
    0xec, 0x00, 0x00, 0x00, 0xf0, 0x00, 0x00, 0x00, 0x04, 0x00, 0x00, 0x00, 
    0x6d, 0x61, 0x69, 0x6e, 0x00, 0x00, 0x00, 0x00, 0x03, 0x00, 0x00, 0x00, 
    0x90, 0x00, 0x00, 0x00, 0x48, 0x00, 0x00, 0x00, 0x04, 0x00, 0x00, 0x00, 
    0xce, 0xff, 0xff, 0xff, 0x10, 0x00, 0x00, 0x00, 0x00, 0x00, 0x00, 0x08, 
    0x0c, 0x00, 0x00, 0x00, 0x10, 0x00, 0x00, 0x00, 0xb0, 0xfb, 0xff, 0xff, 
    0x01, 0x00, 0x00, 0x00, 0x09, 0x00, 0x00, 0x00, 0x03, 0x00, 0x00, 0x00, 
    0x08, 0x00, 0x00, 0x00, 0x03, 0x00, 0x00, 0x00, 0x02, 0x00, 0x00, 0x00, 
    0x00, 0x00, 0x0e, 0x00, 0x14, 0x00, 0x00, 0x00, 0x10, 0x00, 0x0c, 0x00, 
    0x0b, 0x00, 0x04, 0x00, 0x0e, 0x00, 0x00, 0x00, 0x10, 0x00, 0x00, 0x00, 
    0x00, 0x00, 0x00, 0x08, 0x10, 0x00, 0x00, 0x00, 0x14, 0x00, 0x00, 0x00, 
    0xba, 0xff, 0xff, 0xff, 0x00, 0x00, 0x00, 0x01, 0x01, 0x00, 0x00, 0x00, 
    0x08, 0x00, 0x00, 0x00, 0x03, 0x00, 0x00, 0x00, 0x07, 0x00, 0x00, 0x00, 
    0x04, 0x00, 0x00, 0x00, 0x01, 0x00, 0x00, 0x00, 0x00, 0x00, 0x0e, 0x00, 
    0x16, 0x00, 0x00, 0x00, 0x10, 0x00, 0x0c, 0x00, 0x0b, 0x00, 0x04, 0x00, 
    0x0e, 0x00, 0x00, 0x00, 0x18, 0x00, 0x00, 0x00, 0x00, 0x00, 0x00, 0x08, 
    0x18, 0x00, 0x00, 0x00, 0x1c, 0x00, 0x00, 0x00, 0x00, 0x00, 0x06, 0x00, 
    0x08, 0x00, 0x07, 0x00, 0x06, 0x00, 0x00, 0x00, 0x00, 0x00, 0x00, 0x01, 
    0x01, 0x00, 0x00, 0x00, 0x07, 0x00, 0x00, 0x00, 0x03, 0x00, 0x00, 0x00, 
    0x00, 0x00, 0x00, 0x00, 0x05, 0x00, 0x00, 0x00, 0x06, 0x00, 0x00, 0x00, 
    0x01, 0x00, 0x00, 0x00, 0x09, 0x00, 0x00, 0x00, 0x01, 0x00, 0x00, 0x00, 
    0x00, 0x00, 0x00, 0x00, 0x0a, 0x00, 0x00, 0x00, 0x68, 0x03, 0x00, 0x00, 
    0x14, 0x03, 0x00, 0x00, 0xc0, 0x02, 0x00, 0x00, 0x80, 0x02, 0x00, 0x00, 
    0x40, 0x02, 0x00, 0x00, 0xf4, 0x01, 0x00, 0x00, 0x90, 0x01, 0x00, 0x00, 
    0xfc, 0x00, 0x00, 0x00, 0x60, 0x00, 0x00, 0x00, 0x04, 0x00, 0x00, 0x00, 
    0xd6, 0xfc, 0xff, 0xff, 0x00, 0x00, 0x00, 0x01, 0x14, 0x00, 0x00, 0x00, 
    0x1c, 0x00, 0x00, 0x00, 0x1c, 0x00, 0x00, 0x00, 0x0a, 0x00, 0x00, 0x00, 
    0x34, 0x00, 0x00, 0x00, 0x02, 0x00, 0x00, 0x00, 0xff, 0xff, 0xff, 0xff, 
    0x01, 0x00, 0x00, 0x00, 0xc0, 0xfc, 0xff, 0xff, 0x1b, 0x00, 0x00, 0x00, 
    0x53, 0x74, 0x61, 0x74, 0x65, 0x66, 0x75, 0x6c, 0x50, 0x61, 0x72, 0x74, 
    0x69, 0x74, 0x69, 0x6f, 0x6e, 0x65, 0x64, 0x43, 0x61, 0x6c, 0x6c, 0x5f, 
    0x31, 0x3a, 0x30, 0x00, 0x02, 0x00, 0x00, 0x00, 0x01, 0x00, 0x00, 0x00, 
    0x01, 0x00, 0x00, 0x00, 0x2e, 0xfd, 0xff, 0xff, 0x00, 0x00, 0x00, 0x01, 
    0x14, 0x00, 0x00, 0x00, 0x1c, 0x00, 0x00, 0x00, 0x1c, 0x00, 0x00, 0x00, 
    0x09, 0x00, 0x00, 0x00, 0x74, 0x00, 0x00, 0x00, 0x02, 0x00, 0x00, 0x00, 
    0xff, 0xff, 0xff, 0xff, 0x10, 0x00, 0x00, 0x00, 0x18, 0xfd, 0xff, 0xff, 
    0x58, 0x00, 0x00, 0x00, 0x73, 0x65, 0x71, 0x75, 0x65, 0x6e, 0x74, 0x69, 
    0x61, 0x6c, 0x5f, 0x31, 0x2f, 0x64, 0x65, 0x6e, 0x73, 0x65, 0x5f, 0x31, 
    0x5f, 0x32, 0x2f, 0x4d, 0x61, 0x74, 0x4d, 0x75, 0x6c, 0x3b, 0x73, 0x65, 
    0x71, 0x75, 0x65, 0x6e, 0x74, 0x69, 0x61, 0x6c, 0x5f, 0x31, 0x2f, 0x64, 
    0x65, 0x6e, 0x73, 0x65, 0x5f, 0x31, 0x5f, 0x32, 0x2f, 0x52, 0x65, 0x6c, 
    0x75, 0x3b, 0x73, 0x65, 0x71, 0x75, 0x65, 0x6e, 0x74, 0x69, 0x61, 0x6c, 
    0x5f, 0x31, 0x2f, 0x64, 0x65, 0x6e, 0x73, 0x65, 0x5f, 0x31, 0x5f, 0x32, 
    0x2f, 0x42, 0x69, 0x61, 0x73, 0x41, 0x64, 0x64, 0x00, 0x00, 0x00, 0x00, 
    0x02, 0x00, 0x00, 0x00, 0x01, 0x00, 0x00, 0x00, 0x10, 0x00, 0x00, 0x00, 
    0xc6, 0xfd, 0xff, 0xff, 0x00, 0x00, 0x00, 0x01, 0x14, 0x00, 0x00, 0x00, 
    0x1c, 0x00, 0x00, 0x00, 0x1c, 0x00, 0x00, 0x00, 0x08, 0x00, 0x00, 0x00, 
    0x6c, 0x00, 0x00, 0x00, 0x02, 0x00, 0x00, 0x00, 0xff, 0xff, 0xff, 0xff, 
    0x20, 0x00, 0x00, 0x00, 0xb0, 0xfd, 0xff, 0xff, 0x52, 0x00, 0x00, 0x00, 
    0x73, 0x65, 0x71, 0x75, 0x65, 0x6e, 0x74, 0x69, 0x61, 0x6c, 0x5f, 0x31, 
    0x2f, 0x64, 0x65, 0x6e, 0x73, 0x65, 0x5f, 0x31, 0x2f, 0x4d, 0x61, 0x74, 
    0x4d, 0x75, 0x6c, 0x3b, 0x73, 0x65, 0x71, 0x75, 0x65, 0x6e, 0x74, 0x69, 
    0x61, 0x6c, 0x5f, 0x31, 0x2f, 0x64, 0x65, 0x6e, 0x73, 0x65, 0x5f, 0x31, 
    0x2f, 0x52, 0x65, 0x6c, 0x75, 0x3b, 0x73, 0x65, 0x71, 0x75, 0x65, 0x6e, 
    0x74, 0x69, 0x61, 0x6c, 0x5f, 0x31, 0x2f, 0x64, 0x65, 0x6e, 0x73, 0x65, 
    0x5f, 0x31, 0x2f, 0x42, 0x69, 0x61, 0x73, 0x41, 0x64, 0x64, 0x00, 0x00, 
    0x02, 0x00, 0x00, 0x00, 0x01, 0x00, 0x00, 0x00, 0x20, 0x00, 0x00, 0x00, 
    0xa6, 0xfe, 0xff, 0xff, 0x00, 0x00, 0x00, 0x01, 0x10, 0x00, 0x00, 0x00, 
    0x10, 0x00, 0x00, 0x00, 0x07, 0x00, 0x00, 0x00, 0x44, 0x00, 0x00, 0x00, 
    0x30, 0xfe, 0xff, 0xff, 0x36, 0x00, 0x00, 0x00, 0x73, 0x65, 0x71, 0x75, 
    0x65, 0x6e, 0x74, 0x69, 0x61, 0x6c, 0x5f, 0x31, 0x2f, 0x64, 0x65, 0x6e, 
    0x73, 0x65, 0x5f, 0x31, 0x2f, 0x52, 0x65, 0x6c, 0x75, 0x3b, 0x73, 0x65, 
    0x71, 0x75, 0x65, 0x6e, 0x74, 0x69, 0x61, 0x6c, 0x5f, 0x31, 0x2f, 0x64, 
    0x65, 0x6e, 0x73, 0x65, 0x5f, 0x31, 0x2f, 0x42, 0x69, 0x61, 0x73, 0x41, 
    0x64, 0x64, 0x00, 0x00, 0x01, 0x00, 0x00, 0x00, 0x20, 0x00, 0x00, 0x00, 
    0x06, 0xff, 0xff, 0xff, 0x00, 0x00, 0x00, 0x01, 0x10, 0x00, 0x00, 0x00, 
    0x10, 0x00, 0x00, 0x00, 0x06, 0x00, 0x00, 0x00, 0x28, 0x00, 0x00, 0x00, 
    0x90, 0xfe, 0xff, 0xff, 0x1b, 0x00, 0x00, 0x00, 0x73, 0x65, 0x71, 0x75, 
    0x65, 0x6e, 0x74, 0x69, 0x61, 0x6c, 0x5f, 0x31, 0x2f, 0x64, 0x65, 0x6e, 
    0x73, 0x65, 0x5f, 0x31, 0x2f, 0x4d, 0x61, 0x74, 0x4d, 0x75, 0x6c, 0x00, 
    0x02, 0x00, 0x00, 0x00, 0x20, 0x00, 0x00, 0x00, 0x12, 0x00, 0x00, 0x00, 
    0x4e, 0xff, 0xff, 0xff, 0x00, 0x00, 0x00, 0x01, 0x10, 0x00, 0x00, 0x00, 
    0x10, 0x00, 0x00, 0x00, 0x05, 0x00, 0x00, 0x00, 0x1c, 0x00, 0x00, 0x00, 
    0xd8, 0xfe, 0xff, 0xff, 0x0f, 0x00, 0x00, 0x00, 0x61, 0x72, 0x69, 0x74, 
    0x68, 0x2e, 0x63, 0x6f, 0x6e, 0x73, 0x74, 0x61, 0x6e, 0x74, 0x33, 0x00, 
    0x02, 0x00, 0x00, 0x00, 0x10, 0x00, 0x00, 0x00, 0x20, 0x00, 0x00, 0x00, 
    0x8a, 0xff, 0xff, 0xff, 0x00, 0x00, 0x00, 0x01, 0x10, 0x00, 0x00, 0x00, 
    0x10, 0x00, 0x00, 0x00, 0x04, 0x00, 0x00, 0x00, 0x1c, 0x00, 0x00, 0x00, 
    0x14, 0xff, 0xff, 0xff, 0x0f, 0x00, 0x00, 0x00, 0x61, 0x72, 0x69, 0x74, 
    0x68, 0x2e, 0x63, 0x6f, 0x6e, 0x73, 0x74, 0x61, 0x6e, 0x74, 0x32, 0x00, 
    0x02, 0x00, 0x00, 0x00, 0x01, 0x00, 0x00, 0x00, 0x10, 0x00, 0x00, 0x00, 
    0xc6, 0xff, 0xff, 0xff, 0x00, 0x00, 0x00, 0x01, 0x10, 0x00, 0x00, 0x00, 
    0x10, 0x00, 0x00, 0x00, 0x03, 0x00, 0x00, 0x00, 0x1c, 0x00, 0x00, 0x00, 
    0x50, 0xff, 0xff, 0xff, 0x0f, 0x00, 0x00, 0x00, 0x61, 0x72, 0x69, 0x74, 
    0x68, 0x2e, 0x63, 0x6f, 0x6e, 0x73, 0x74, 0x61, 0x6e, 0x74, 0x31, 0x00, 
    0x01, 0x00, 0x00, 0x00, 0x01, 0x00, 0x00, 0x00, 0x00, 0x00, 0x16, 0x00, 
    0x18, 0x00, 0x14, 0x00, 0x00, 0x00, 0x10, 0x00, 0x0c, 0x00, 0x08, 0x00, 
    0x00, 0x00, 0x00, 0x00, 0x00, 0x00, 0x07, 0x00, 0x16, 0x00, 0x00, 0x00, 
    0x00, 0x00, 0x00, 0x01, 0x10, 0x00, 0x00, 0x00, 0x10, 0x00, 0x00, 0x00, 
    0x02, 0x00, 0x00, 0x00, 0x1c, 0x00, 0x00, 0x00, 0xa0, 0xff, 0xff, 0xff, 
    0x0e, 0x00, 0x00, 0x00, 0x61, 0x72, 0x69, 0x74, 0x68, 0x2e, 0x63, 0x6f, 
    0x6e, 0x73, 0x74, 0x61, 0x6e, 0x74, 0x00, 0x00, 0x01, 0x00, 0x00, 0x00, 
    0x10, 0x00, 0x00, 0x00, 0x00, 0x00, 0x16, 0x00, 0x1c, 0x00, 0x18, 0x00, 
    0x00, 0x00, 0x14, 0x00, 0x10, 0x00, 0x0c, 0x00, 0x00, 0x00, 0x00, 0x00, 
    0x08, 0x00, 0x07, 0x00, 0x16, 0x00, 0x00, 0x00, 0x00, 0x00, 0x00, 0x01, 
    0x14, 0x00, 0x00, 0x00, 0x20, 0x00, 0x00, 0x00, 0x20, 0x00, 0x00, 0x00, 
    0x01, 0x00, 0x00, 0x00, 0x3c, 0x00, 0x00, 0x00, 0x02, 0x00, 0x00, 0x00, 
    0xff, 0xff, 0xff, 0xff, 0x12, 0x00, 0x00, 0x00, 0x04, 0x00, 0x04, 0x00, 
    0x04, 0x00, 0x00, 0x00, 0x1e, 0x00, 0x00, 0x00, 0x73, 0x65, 0x72, 0x76, 
    0x69, 0x6e, 0x67, 0x5f, 0x64, 0x65, 0x66, 0x61, 0x75, 0x6c, 0x74, 0x5f, 
    0x6b, 0x65, 0x72, 0x61, 0x73, 0x5f, 0x74, 0x65, 0x6e, 0x73, 0x6f, 0x72, 
    0x3a, 0x30, 0x00, 0x00, 0x02, 0x00, 0x00, 0x00, 0x01, 0x00, 0x00, 0x00, 
    0x12, 0x00, 0x00, 0x00, 0x01, 0x00, 0x00, 0x00, 0x10, 0x00, 0x00, 0x00, 
    0x0c, 0x00, 0x0c, 0x00, 0x0b, 0x00, 0x00, 0x00, 0x00, 0x00, 0x04, 0x00, 
    0x0c, 0x00, 0x00, 0x00, 0x09, 0x00, 0x00, 0x00, 0x00, 0x00, 0x00, 0x09
};

const unsigned int g_humedad_model_len = 6492;
